const unsigned char wine_mlp_float_tflite[] = {
  0x1c, 0x00, 0x00, 0x00, 0x54, 0x46, 0x4c, 0x33, 0x14, 0x00, 0x20, 0x00,
  0x1c, 0x00, 0x18, 0x00, 0x14, 0x00, 0x10, 0x00, 0x0c, 0x00, 0x00, 0x00,
  0x08, 0x00, 0x04, 0x00, 0x14, 0x00, 0x00, 0x00, 0x1c, 0x00, 0x00, 0x00,
  0x98, 0x00, 0x00, 0x00, 0xf0, 0x00, 0x00, 0x00, 0x1c, 0x08, 0x00, 0x00,
  0x2c, 0x08, 0x00, 0x00, 0xe0, 0x0d, 0x00, 0x00, 0x03, 0x00, 0x00, 0x00,
  0x01, 0x00, 0x00, 0x00, 0x10, 0x00, 0x00, 0x00, 0x00, 0x00, 0x0a, 0x00,
  0x10, 0x00, 0x0c, 0x00, 0x08, 0x00, 0x04, 0x00, 0x0a, 0x00, 0x00, 0x00,
  0x0c, 0x00, 0x00, 0x00, 0x1c, 0x00, 0x00, 0x00, 0x3c, 0x00, 0x00, 0x00,
  0x0f, 0x00, 0x00, 0x00, 0x73, 0x65, 0x72, 0x76, 0x69, 0x6e, 0x67, 0x5f,
  0x64, 0x65, 0x66, 0x61, 0x75, 0x6c, 0x74, 0x00, 0x01, 0x00, 0x00, 0x00,
  0x04, 0x00, 0x00, 0x00, 0x90, 0xff, 0xff, 0xff, 0x0a, 0x00, 0x00, 0x00,
  0x04, 0x00, 0x00, 0x00, 0x08, 0x00, 0x00, 0x00, 0x6f, 0x75, 0x74, 0x70,
  0x75, 0x74, 0x5f, 0x30, 0x00, 0x00, 0x00, 0x00, 0x01, 0x00, 0x00, 0x00,
  0x04, 0x00, 0x00, 0x00, 0xca, 0xf7, 0xff, 0xff, 0x04, 0x00, 0x00, 0x00,
  0x0e, 0x00, 0x00, 0x00, 0x6b, 0x65, 0x72, 0x61, 0x73, 0x5f, 0x74, 0x65,
  0x6e, 0x73, 0x6f, 0x72, 0x5f, 0x34, 0x00, 0x00, 0x02, 0x00, 0x00, 0x00,
  0x34, 0x00, 0x00, 0x00, 0x04, 0x00, 0x00, 0x00, 0xdc, 0xff, 0xff, 0xff,
  0x0d, 0x00, 0x00, 0x00, 0x04, 0x00, 0x00, 0x00, 0x13, 0x00, 0x00, 0x00,
  0x43, 0x4f, 0x4e, 0x56, 0x45, 0x52, 0x53, 0x49, 0x4f, 0x4e, 0x5f, 0x4d,
  0x45, 0x54, 0x41, 0x44, 0x41, 0x54, 0x41, 0x00, 0x08, 0x00, 0x0c, 0x00,
  0x08, 0x00, 0x04, 0x00, 0x08, 0x00, 0x00, 0x00, 0x0c, 0x00, 0x00, 0x00,
  0x04, 0x00, 0x00, 0x00, 0x13, 0x00, 0x00, 0x00, 0x6d, 0x69, 0x6e, 0x5f,
  0x72, 0x75, 0x6e, 0x74, 0x69, 0x6d, 0x65, 0x5f, 0x76, 0x65, 0x72, 0x73,
  0x69, 0x6f, 0x6e, 0x00, 0x0e, 0x00, 0x00, 0x00, 0x28, 0x07, 0x00, 0x00,
  0x20, 0x07, 0x00, 0x00, 0xb0, 0x06, 0x00, 0x00, 0xa0, 0x04, 0x00, 0x00,
  0x84, 0x04, 0x00, 0x00, 0x54, 0x04, 0x00, 0x00, 0x04, 0x04, 0x00, 0x00,
  0xb4, 0x00, 0x00, 0x00, 0xac, 0x00, 0x00, 0x00, 0xa4, 0x00, 0x00, 0x00,
  0x9c, 0x00, 0x00, 0x00, 0x94, 0x00, 0x00, 0x00, 0x74, 0x00, 0x00, 0x00,
  0x04, 0x00, 0x00, 0x00, 0x7e, 0xf8, 0xff, 0xff, 0x04, 0x00, 0x00, 0x00,
  0x60, 0x00, 0x00, 0x00, 0x10, 0x00, 0x00, 0x00, 0x00, 0x00, 0x00, 0x00,
  0x08, 0x00, 0x0e, 0x00, 0x08, 0x00, 0x04, 0x00, 0x08, 0x00, 0x00, 0x00,
  0x10, 0x00, 0x00, 0x00, 0x24, 0x00, 0x00, 0x00, 0x00, 0x00, 0x06, 0x00,
  0x08, 0x00, 0x04, 0x00, 0x06, 0x00, 0x00, 0x00, 0x04, 0x00, 0x00, 0x00,
  0x00, 0x00, 0x00, 0x00, 0x0c, 0x00, 0x18, 0x00, 0x14, 0x00, 0x10, 0x00,
  0x0c, 0x00, 0x04, 0x00, 0x0c, 0x00, 0x00, 0x00, 0x86, 0x15, 0xde, 0x51,
  0xa6, 0x78, 0xd4, 0x03, 0x02, 0x00, 0x00, 0x00, 0x02, 0x00, 0x00, 0x00,
  0x04, 0x00, 0x00, 0x00, 0x06, 0x00, 0x00, 0x00, 0x32, 0x2e, 0x31, 0x39,
  0x2e, 0x30, 0x00, 0x00, 0xea, 0xf8, 0xff, 0xff, 0x04, 0x00, 0x00, 0x00,
  0x10, 0x00, 0x00, 0x00, 0x31, 0x2e, 0x35, 0x2e, 0x30, 0x00, 0x00, 0x00,
  0x00, 0x00, 0x00, 0x00, 0x00, 0x00, 0x00, 0x00, 0x04, 0xf4, 0xff, 0xff,
  0x08, 0xf4, 0xff, 0xff, 0x0c, 0xf4, 0xff, 0xff, 0x10, 0xf4, 0xff, 0xff,
  0x16, 0xf9, 0xff, 0xff, 0x04, 0x00, 0x00, 0x00, 0x40, 0x03, 0x00, 0x00,
  0xfa, 0x6d, 0x9e, 0xbe, 0x36, 0x7e, 0x3e, 0xbe, 0x9b, 0x3e, 0x00, 0x3e,
  0x45, 0xe0, 0xe0, 0x3d, 0xfa, 0x02, 0x93, 0xbe, 0x13, 0x69, 0xa2, 0xbe,
  0x17, 0x48, 0xac, 0xbd, 0x45, 0x3b, 0x68, 0x3e, 0xea, 0x36, 0x01, 0x3e,
  0x72, 0x7b, 0x8b, 0x3d, 0x63, 0x30, 0x09, 0xbf, 0x1d, 0x44, 0xdf, 0xbe,
  0xcb, 0x62, 0x9d, 0x3e, 0x7a, 0xd5, 0x54, 0xbe, 0x4b, 0xfc, 0xac, 0xbe,
  0x3e, 0x91, 0xad, 0xbe, 0x1f, 0x2c, 0x13, 0x3f, 0x10, 0xac, 0xbf, 0x3d,
  0x15, 0x70, 0x0e, 0xbf, 0x76, 0xaf, 0xa0, 0x3e, 0x6d, 0x0a, 0xf5, 0xbb,
  0x90, 0x63, 0x02, 0x3f, 0x5e, 0x06, 0x3f, 0xbf, 0xc5, 0x34, 0xd4, 0xbc,
  0x8f, 0xd6, 0x43, 0x3e, 0xe5, 0xde, 0x14, 0xbf, 0x88, 0xe7, 0x99, 0xbe,
  0x68, 0x9e, 0x02, 0x3f, 0x76, 0x08, 0xb3, 0x3e, 0xa2, 0x6e, 0x37, 0x3d,
  0xde, 0x4c, 0xb3, 0x3e, 0xf6, 0x4e, 0x22, 0x3d, 0x3e, 0xb9, 0x66, 0xbc,
  0x59, 0xbb, 0x8c, 0x3e, 0xb8, 0x81, 0x90, 0xbe, 0xc6, 0xee, 0x9e, 0x3e,
  0xa1, 0x0f, 0xe1, 0xbe, 0xb3, 0xcc, 0x83, 0xbe, 0xd2, 0xca, 0x51, 0x3e,
  0xc3, 0x39, 0x28, 0x3e, 0x34, 0x02, 0x60, 0xbd, 0xa8, 0x52, 0xe7, 0xbc,
  0xb7, 0xa5, 0x03, 0x3f, 0x5b, 0x3c, 0x0a, 0xbf, 0xd7, 0xd4, 0x21, 0xbd,
  0xb8, 0xa6, 0xe1, 0xbe, 0x3d, 0x04, 0xaf, 0xbe, 0x63, 0x87, 0x9b, 0xb6,
  0xe3, 0xb8, 0xb5, 0xbd, 0xbf, 0x79, 0x95, 0xbe, 0x6f, 0xdc, 0x05, 0xbf,
  0x21, 0x9d, 0xc5, 0xbe, 0xe9, 0x57, 0xb9, 0x3d, 0x4c, 0x97, 0xf9, 0xbd,
  0x52, 0x0e, 0x88, 0xbd, 0xac, 0x44, 0x6d, 0xbd, 0xe5, 0xc2, 0xf6, 0xbc,
  0x02, 0x58, 0x39, 0x3d, 0xa4, 0x99, 0x3f, 0xbe, 0xf5, 0x6c, 0xaa, 0x3e,
  0x07, 0x6e, 0x81, 0x3e, 0xea, 0x62, 0xbc, 0x3e, 0x5e, 0xd3, 0x5a, 0xbe,
  0xe7, 0x79, 0x9a, 0xb9, 0x98, 0xc0, 0x2e, 0x3d, 0x29, 0xf7, 0x16, 0xbf,
  0xa0, 0xbc, 0x21, 0xbe, 0xb2, 0xcc, 0xef, 0xbe, 0xf1, 0xc6, 0x2b, 0x3e,
  0xce, 0x87, 0x23, 0xbe, 0x92, 0xea, 0x38, 0x3e, 0xb8, 0x40, 0xb3, 0x3e,
  0x0a, 0x33, 0xbc, 0xbe, 0x93, 0x6a, 0xf1, 0x3e, 0xf8, 0x8d, 0x51, 0x3d,
  0x22, 0x9e, 0x31, 0x3f, 0x8b, 0xd8, 0x25, 0x3f, 0x42, 0xf8, 0x22, 0xbd,
  0x87, 0x58, 0xcc, 0x3e, 0x64, 0x5b, 0xd6, 0x3e, 0x8d, 0x15, 0x2e, 0xbe,
  0xf6, 0x2f, 0xbc, 0x3d, 0x78, 0xd3, 0xd5, 0x3e, 0x00, 0xc3, 0x22, 0xbe,
  0xc5, 0xca, 0xbf, 0xbe, 0x8b, 0x45, 0x51, 0xbe, 0x89, 0x20, 0x9f, 0xbe,
  0x7e, 0x1d, 0x10, 0x3e, 0x00, 0x29, 0x54, 0xbe, 0x8e, 0xb8, 0xf3, 0xbe,
  0x05, 0x62, 0x83, 0x3e, 0xb5, 0xe3, 0x07, 0x3f, 0xe4, 0xb3, 0x77, 0xbe,
  0x4f, 0x96, 0xef, 0x3e, 0xd0, 0x87, 0x17, 0xbf, 0x5c, 0x17, 0x38, 0x3d,
  0x8e, 0xcf, 0xab, 0x3d, 0xab, 0xcf, 0x1d, 0xbd, 0xc6, 0x21, 0xee, 0xbd,
  0xf0, 0xd8, 0x17, 0xbd, 0x5d, 0x4c, 0x69, 0x3d, 0x4c, 0xda, 0x0d, 0xbe,
  0xfe, 0xe8, 0x1f, 0x3f, 0x90, 0xd3, 0x75, 0x3e, 0xae, 0x63, 0xa5, 0xbe,
  0x2c, 0xe0, 0x08, 0xbf, 0xd3, 0x43, 0x17, 0x3e, 0x54, 0x25, 0x15, 0xbe,
  0x03, 0xf3, 0xc6, 0xbe, 0xfb, 0x12, 0xcc, 0xbb, 0xa3, 0x4c, 0xa1, 0xbe,
  0xcd, 0x95, 0xc3, 0x3e, 0xf7, 0xc8, 0x91, 0x3d, 0xc9, 0xba, 0x03, 0xbe,
  0x67, 0xf4, 0x58, 0x3e, 0xbf, 0x5c, 0xab, 0xbe, 0xcd, 0x61, 0xa0, 0x3d,
  0x45, 0x50, 0x9b, 0x3e, 0xf7, 0xac, 0xe4, 0x3e, 0x4d, 0xf6, 0x94, 0x3e,
  0x47, 0xdc, 0x62, 0x3e, 0xc7, 0x43, 0x9d, 0xbe, 0xbe, 0x1c, 0xdf, 0xbe,
  0xe4, 0xdd, 0x16, 0xbf, 0xa5, 0x36, 0x9e, 0x3e, 0x15, 0x6d, 0xeb, 0xbe,
  0xeb, 0xbb, 0x2b, 0xbd, 0xda, 0xf8, 0xb8, 0xbe, 0xa3, 0xb9, 0x27, 0xbf,
  0xee, 0x05, 0x64, 0xbe, 0x62, 0x46, 0x92, 0xbe, 0x2f, 0x0c, 0xf6, 0xbe,
  0x1d, 0x9f, 0x06, 0xbf, 0x18, 0x3d, 0x18, 0x3f, 0xd8, 0xfe, 0xbc, 0xbd,
  0x09, 0x65, 0x63, 0x3e, 0x55, 0x18, 0x48, 0x3e, 0xfe, 0xb5, 0x03, 0xbd,
  0x51, 0x30, 0x21, 0xbd, 0xb0, 0xd3, 0x4e, 0xbe, 0x94, 0x3a, 0x54, 0xbd,
  0x32, 0x0a, 0x8c, 0x3e, 0x17, 0x11, 0xbd, 0xbc, 0x9a, 0x3a, 0x29, 0x3f,
  0xd0, 0x04, 0x23, 0x3e, 0x4b, 0xfb, 0x0c, 0x3e, 0xb1, 0x6a, 0xb1, 0xbe,
  0x13, 0xc5, 0x06, 0x3e, 0xf2, 0xd3, 0x73, 0x3e, 0xda, 0x69, 0x9c, 0x3e,
  0xa1, 0x9c, 0xe9, 0xbd, 0xd2, 0xb3, 0x0b, 0xbd, 0x79, 0xf3, 0xdb, 0x3d,
  0xe9, 0x06, 0x3e, 0xbd, 0x83, 0x71, 0x1d, 0x3f, 0x11, 0x59, 0x43, 0x3f,
  0x29, 0xb0, 0xc0, 0x3e, 0x75, 0x2d, 0x8f, 0xbb, 0xbe, 0x0f, 0x24, 0xbe,
  0x7b, 0xf1, 0xbb, 0xbe, 0x44, 0x09, 0xa8, 0x3e, 0x7b, 0xcc, 0x60, 0x3e,
  0x8c, 0x5c, 0x13, 0x3f, 0x45, 0x2c, 0xa4, 0xbe, 0x8a, 0x82, 0x50, 0x3e,
  0x8c, 0x9b, 0xb3, 0x3d, 0xc0, 0x0e, 0x82, 0x3d, 0x8e, 0x92, 0x0b, 0xbe,
  0x54, 0xc2, 0x37, 0xbc, 0x02, 0x3d, 0xb3, 0x3d, 0x2c, 0x50, 0x8b, 0x3e,
  0x95, 0xc6, 0x98, 0x3b, 0x4b, 0x76, 0x34, 0xbe, 0x1b, 0xf3, 0xf4, 0xbe,
  0x14, 0xb9, 0x85, 0x3e, 0x12, 0xe3, 0x0a, 0x3e, 0xef, 0x3f, 0xed, 0x3e,
  0xdf, 0x21, 0x83, 0x3e, 0xbf, 0x0d, 0xac, 0xbe, 0x1a, 0x73, 0x83, 0x3e,
  0x67, 0x2f, 0x94, 0xbe, 0x10, 0x49, 0xde, 0xbe, 0xa3, 0x4f, 0x66, 0x3e,
  0x5d, 0x0c, 0xa7, 0x3e, 0x75, 0x7a, 0x52, 0x3d, 0xb4, 0xc9, 0x97, 0x3d,
  0x04, 0x0c, 0xde, 0xbc, 0xb6, 0xef, 0x9f, 0xbd, 0x86, 0x7d, 0x32, 0x3f,
  0xa4, 0xec, 0xad, 0xbe, 0xea, 0x4b, 0xaa, 0x3e, 0x8f, 0x4e, 0x54, 0xbe,
  0xac, 0x77, 0xe6, 0x3e, 0xb2, 0x73, 0xfc, 0xbd, 0xd9, 0xa5, 0x01, 0x3f,
  0x9f, 0x2b, 0x1b, 0xbf, 0x73, 0x68, 0x44, 0x3e, 0x51, 0xa4, 0x89, 0xbe,
  0x1f, 0x3c, 0xa5, 0xbe, 0x4c, 0x9a, 0xa0, 0xbd, 0xd0, 0xc1, 0x1e, 0xbe,
  0xa6, 0x3a, 0x40, 0xbd, 0x99, 0x05, 0xb3, 0x3e, 0xc3, 0x15, 0x2d, 0x3d,
  0xf9, 0x06, 0x05, 0xbf, 0x0b, 0x9b, 0x38, 0xbd, 0x96, 0x4e, 0x8f, 0xbe,
  0x6c, 0x45, 0x80, 0xbe, 0x62, 0xfc, 0xff, 0xff, 0x04, 0x00, 0x00, 0x00,
  0x40, 0x00, 0x00, 0x00, 0x0b, 0x29, 0x73, 0xbd, 0xab, 0x99, 0xa6, 0x3e,
  0x80, 0x1f, 0xd9, 0xbd, 0xe4, 0x03, 0x8b, 0x3e, 0xac, 0x65, 0x1a, 0xbd,
  0x34, 0x43, 0x9e, 0x3e, 0x7f, 0xcf, 0x43, 0x3e, 0xce, 0x3f, 0x59, 0x3e,
  0x87, 0x60, 0x15, 0x3e, 0x55, 0x74, 0x24, 0x3e, 0xb7, 0xc4, 0xc5, 0x3d,
  0x81, 0x8c, 0x63, 0x3e, 0x63, 0xeb, 0xea, 0x3d, 0x0a, 0xb6, 0xe4, 0x3d,
  0x2a, 0x5f, 0xe4, 0x3d, 0x65, 0x1e, 0x40, 0x3e, 0xae, 0xfc, 0xff, 0xff,
  0x04, 0x00, 0x00, 0x00, 0x20, 0x00, 0x00, 0x00, 0x29, 0xc1, 0x4b, 0x3e,
  0x68, 0xa4, 0x91, 0xbd, 0x7a, 0xff, 0xa7, 0x3e, 0x6f, 0x56, 0x14, 0x3e,
  0x81, 0x73, 0xe8, 0x3d, 0x68, 0x8a, 0x9c, 0xbd, 0xa2, 0x08, 0x0b, 0x3e,
  0xdb, 0xff, 0xa0, 0x3e, 0xda, 0xfc, 0xff, 0xff, 0x04, 0x00, 0x00, 0x00,
  0x0c, 0x00, 0x00, 0x00, 0x91, 0x16, 0x56, 0x3e, 0xa2, 0xca, 0x49, 0xbe,
  0xd9, 0x8f, 0xbe, 0xbd, 0xf2, 0xfc, 0xff, 0xff, 0x04, 0x00, 0x00, 0x00,
  0x00, 0x02, 0x00, 0x00, 0xc9, 0xf3, 0x2b, 0xbd, 0xa5, 0x74, 0x15, 0x3f,
  0x29, 0x18, 0xd6, 0xbe, 0x55, 0x2f, 0xd9, 0x3e, 0x67, 0x51, 0x05, 0xbd,
  0x42, 0x61, 0xba, 0x3e, 0x6e, 0x8b, 0x7a, 0x3c, 0x20, 0x38, 0xaf, 0xbe,
  0x08, 0xd2, 0x04, 0x3f, 0xf6, 0x0b, 0xbb, 0xbe, 0x09, 0x6f, 0x8d, 0xbe,
  0xf4, 0x96, 0xb1, 0xbd, 0x52, 0x60, 0x35, 0x3e, 0xde, 0xcc, 0x1b, 0x3f,
  0x37, 0x18, 0x96, 0xbe, 0xb6, 0xbc, 0x21, 0x3f, 0x40, 0x33, 0xff, 0x3d,
  0x4f, 0xaf, 0x36, 0xbe, 0x2c, 0x1a, 0xb9, 0x3e, 0xa5, 0x23, 0x41, 0x3f,
  0x63, 0x39, 0x15, 0x3f, 0x8f, 0xd4, 0x10, 0x3d, 0xbb, 0xf0, 0x18, 0x3f,
  0xdc, 0xfa, 0xc3, 0x3c, 0x19, 0x24, 0xfc, 0x3e, 0x8e, 0x60, 0x3c, 0x3f,
  0x2d, 0xc7, 0xce, 0xbd, 0x64, 0xe4, 0x3b, 0x3e, 0x09, 0x47, 0xb3, 0xbe,
  0xa0, 0xbd, 0xb1, 0xbe, 0x8b, 0xb9, 0x99, 0xbe, 0x3f, 0x18, 0xa3, 0xbd,
  0xf3, 0xa5, 0xa3, 0x3d, 0xd7, 0x79, 0xca, 0x3e, 0xcd, 0x40, 0xe5, 0x3e,
  0x5f, 0x82, 0xe3, 0xbd, 0x08, 0x60, 0xaf, 0xbd, 0xfb, 0xc4, 0xf7, 0x3e,
  0xa5, 0x34, 0x7e, 0x3d, 0x16, 0xac, 0x7f, 0x3f, 0x61, 0xc1, 0x76, 0xbe,
  0xc3, 0x1d, 0x00, 0xbf, 0x77, 0x6c, 0x93, 0xbe, 0xa1, 0xc3, 0x9b, 0x3e,
  0x5f, 0x4c, 0xae, 0x3d, 0xde, 0xc0, 0x8b, 0xbd, 0xc9, 0xef, 0xf9, 0x3e,
  0x86, 0x2a, 0xb7, 0xbe, 0xf9, 0x98, 0xa6, 0x3e, 0xcb, 0x52, 0x44, 0x3f,
  0x2e, 0x82, 0x3d, 0xbe, 0xf5, 0x68, 0x33, 0x3f, 0x57, 0xd2, 0x1e, 0x3c,
  0x70, 0x6c, 0x8b, 0x3e, 0x64, 0xd3, 0xf0, 0x3e, 0x46, 0xba, 0xb7, 0xbe,
  0xd3, 0x08, 0xcd, 0xbd, 0x9d, 0x1a, 0x1f, 0x3f, 0xf3, 0x64, 0xaa, 0x3d,
  0x52, 0x47, 0xdc, 0xbe, 0x58, 0xe7, 0xe2, 0x3d, 0xb2, 0x45, 0xa5, 0x3e,
  0xa0, 0x83, 0x4e, 0x3e, 0x0f, 0x75, 0xc2, 0xbd, 0xde, 0xb2, 0x86, 0xbe,
  0xe8, 0x5e, 0xfe, 0x3e, 0x6f, 0xdf, 0x5a, 0xbe, 0x54, 0x82, 0xc0, 0xbe,
  0x76, 0x96, 0x82, 0x3e, 0xa9, 0x15, 0x66, 0x3e, 0xfe, 0xe8, 0xd2, 0x3e,
  0xa3, 0x52, 0x35, 0xbe, 0x07, 0xdc, 0xed, 0x3e, 0xd9, 0xcb, 0x86, 0xbe,
  0x5f, 0xc1, 0x02, 0x3f, 0x18, 0xac, 0xd1, 0xbe, 0xdf, 0x82, 0x19, 0xbe,
  0x1b, 0x0d, 0x7c, 0xbe, 0xa6, 0x30, 0x86, 0x3e, 0xbe, 0x84, 0xaf, 0x3e,
  0x04, 0xc2, 0xb8, 0x3e, 0x52, 0x1a, 0x00, 0xbd, 0x97, 0x3b, 0x4f, 0x3e,
  0x40, 0x44, 0x9d, 0x3e, 0xe8, 0xfd, 0x63, 0xbe, 0x6a, 0x7a, 0x80, 0xbd,
  0x31, 0x8b, 0x0b, 0xbf, 0x59, 0x14, 0xac, 0xbd, 0x13, 0xb4, 0x80, 0xbe,
  0x69, 0xbc, 0xb1, 0xbe, 0x6e, 0x10, 0xd9, 0xbd, 0x2b, 0xd1, 0x12, 0xbf,
  0xa2, 0x4d, 0x16, 0x3e, 0x20, 0xa0, 0x6a, 0xbe, 0x41, 0x85, 0xa3, 0x3e,
  0x0a, 0xf6, 0x9e, 0x3d, 0xb0, 0xc1, 0xe1, 0xbe, 0x7c, 0x5d, 0x03, 0x3f,
  0x63, 0x1c, 0x9d, 0xbe, 0x70, 0x4b, 0x8f, 0x3e, 0xa9, 0xe0, 0xd5, 0xbe,
  0xad, 0x98, 0x93, 0x3e, 0x50, 0x4a, 0x54, 0xbe, 0x0d, 0x5a, 0xce, 0x3d,
  0xb2, 0x67, 0xe4, 0x3e, 0x9d, 0x6f, 0xad, 0x3d, 0x9b, 0x86, 0x0c, 0x3f,
  0x99, 0x83, 0xf3, 0xbe, 0x41, 0xd4, 0x58, 0xbe, 0x44, 0x68, 0x01, 0x3f,
  0xcf, 0xcc, 0x07, 0x3e, 0xd1, 0x78, 0xcf, 0x3e, 0x5f, 0x40, 0x50, 0x3d,
  0xe6, 0xff, 0x48, 0x3e, 0x65, 0xa8, 0x5e, 0x3c, 0xb8, 0xc8, 0x09, 0xbf,
  0x98, 0x44, 0xe1, 0x3d, 0x77, 0xde, 0x50, 0x3e, 0x1d, 0x5f, 0x98, 0x3e,
  0xcd, 0x9d, 0x03, 0x3f, 0x77, 0x10, 0x2e, 0x3e, 0xcb, 0xad, 0x7b, 0xbe,
  0xa7, 0xd9, 0x90, 0xbd, 0xa7, 0xd3, 0x04, 0x3f, 0xaf, 0xe6, 0x25, 0x3f,
  0x78, 0x63, 0xa1, 0x3d, 0x0d, 0x98, 0x10, 0x3f, 0x67, 0xb6, 0x02, 0xbf,
  0xfe, 0xfe, 0xff, 0xff, 0x04, 0x00, 0x00, 0x00, 0x60, 0x00, 0x00, 0x00,
  0xc8, 0x9b, 0xec, 0xbd, 0xf1, 0xc6, 0x88, 0x3e, 0x8b, 0xcf, 0x49, 0x3f,
  0x59, 0x00, 0x0f, 0xbf, 0x15, 0x50, 0x5a, 0xbe, 0x08, 0xc6, 0x4b, 0x3d,
  0xbd, 0x4e, 0xd7, 0xbe, 0xcd, 0xfb, 0xe0, 0x3e, 0x4f, 0x56, 0x2a, 0x3f,
  0x98, 0x3a, 0x88, 0x3e, 0xf9, 0xb6, 0xaa, 0x3e, 0x76, 0x6b, 0xe9, 0x3d,
  0x1f, 0xad, 0x23, 0x3f, 0xfa, 0x62, 0x2f, 0xbf, 0xf9, 0xdf, 0x56, 0x3f,
  0x49, 0x97, 0x98, 0xbe, 0xe1, 0x56, 0x5a, 0xbf, 0xd2, 0xb7, 0x5d, 0x3f,
  0x6c, 0x67, 0xdc, 0xbe, 0x4d, 0xc0, 0x07, 0x3f, 0x65, 0x89, 0x33, 0xbf,
  0xed, 0x55, 0x29, 0xbf, 0x18, 0x81, 0x5b, 0xbf, 0x09, 0x09, 0x7d, 0xbe,
  0x68, 0xfa, 0xff, 0xff, 0x6c, 0xfa, 0xff, 0xff, 0x0f, 0x00, 0x00, 0x00,
  0x4d, 0x4c, 0x49, 0x52, 0x20, 0x43, 0x6f, 0x6e, 0x76, 0x65, 0x72, 0x74,
  0x65, 0x64, 0x2e, 0x00, 0x01, 0x00, 0x00, 0x00, 0x14, 0x00, 0x00, 0x00,
  0x00, 0x00, 0x0e, 0x00, 0x18, 0x00, 0x14, 0x00, 0x10, 0x00, 0x0c, 0x00,
  0x08, 0x00, 0x04, 0x00, 0x0e, 0x00, 0x00, 0x00, 0x14, 0x00, 0x00, 0x00,
  0x1c, 0x00, 0x00, 0x00, 0x24, 0x01, 0x00, 0x00, 0x28, 0x01, 0x00, 0x00,
  0x2c, 0x01, 0x00, 0x00, 0x04, 0x00, 0x00, 0x00, 0x6d, 0x61, 0x69, 0x6e,
  0x00, 0x00, 0x00, 0x00, 0x04, 0x00, 0x00, 0x00, 0xcc, 0x00, 0x00, 0x00,
  0x84, 0x00, 0x00, 0x00, 0x50, 0x00, 0x00, 0x00, 0x14, 0x00, 0x00, 0x00,
  0x00, 0x00, 0x0e, 0x00, 0x1a, 0x00, 0x14, 0x00, 0x10, 0x00, 0x0c, 0x00,
  0x0b, 0x00, 0x04, 0x00, 0x0e, 0x00, 0x00, 0x00, 0x1c, 0x00, 0x00, 0x00,
  0x00, 0x00, 0x00, 0x09, 0x1c, 0x00, 0x00, 0x00, 0x20, 0x00, 0x00, 0x00,
  0x01, 0x00, 0x00, 0x00, 0x00, 0x00, 0x06, 0x00, 0x08, 0x00, 0x04, 0x00,
  0x06, 0x00, 0x00, 0x00, 0x00, 0x00, 0x80, 0x3f, 0x01, 0x00, 0x00, 0x00,
  0x0a, 0x00, 0x00, 0x00, 0x01, 0x00, 0x00, 0x00, 0x09, 0x00, 0x00, 0x00,
  0x9a, 0xff, 0xff, 0xff, 0x10, 0x00, 0x00, 0x00, 0x00, 0x00, 0x00, 0x08,
  0x0c, 0x00, 0x00, 0x00, 0x10, 0x00, 0x00, 0x00, 0x30, 0xfb, 0xff, 0xff,
  0x01, 0x00, 0x00, 0x00, 0x09, 0x00, 0x00, 0x00, 0x03, 0x00, 0x00, 0x00,
  0x08, 0x00, 0x00, 0x00, 0x01, 0x00, 0x00, 0x00, 0x03, 0x00, 0x00, 0x00,
  0xca, 0xff, 0xff, 0xff, 0x10, 0x00, 0x00, 0x00, 0x00, 0x00, 0x00, 0x08,
  0x10, 0x00, 0x00, 0x00, 0x14, 0x00, 0x00, 0x00, 0xba, 0xff, 0xff, 0xff,
  0x00, 0x00, 0x00, 0x01, 0x01, 0x00, 0x00, 0x00, 0x08, 0x00, 0x00, 0x00,
  0x03, 0x00, 0x00, 0x00, 0x07, 0x00, 0x00, 0x00, 0x02, 0x00, 0x00, 0x00,
  0x04, 0x00, 0x00, 0x00, 0x00, 0x00, 0x0e, 0x00, 0x16, 0x00, 0x00, 0x00,
  0x10, 0x00, 0x0c, 0x00, 0x0b, 0x00, 0x04, 0x00, 0x0e, 0x00, 0x00, 0x00,
  0x18, 0x00, 0x00, 0x00, 0x00, 0x00, 0x00, 0x08, 0x18, 0x00, 0x00, 0x00,
  0x1c, 0x00, 0x00, 0x00, 0x00, 0x00, 0x06, 0x00, 0x08, 0x00, 0x07, 0x00,
  0x06, 0x00, 0x00, 0x00, 0x00, 0x00, 0x00, 0x01, 0x01, 0x00, 0x00, 0x00,
  0x07, 0x00, 0x00, 0x00, 0x03, 0x00, 0x00, 0x00, 0x00, 0x00, 0x00, 0x00,
  0x06, 0x00, 0x00, 0x00, 0x05, 0x00, 0x00, 0x00, 0x01, 0x00, 0x00, 0x00,
  0x0a, 0x00, 0x00, 0x00, 0x01, 0x00, 0x00, 0x00, 0x00, 0x00, 0x00, 0x00,
  0x0b, 0x00, 0x00, 0x00, 0xf8, 0x03, 0x00, 0x00, 0xa0, 0x03, 0x00, 0x00,
  0x48, 0x03, 0x00, 0x00, 0x0c, 0x03, 0x00, 0x00, 0xd0, 0x02, 0x00, 0x00,
  0x74, 0x02, 0x00, 0x00, 0x24, 0x02, 0x00, 0x00, 0x84, 0x01, 0x00, 0x00,
  0xe4, 0x00, 0x00, 0x00, 0x60, 0x00, 0x00, 0x00, 0x04, 0x00, 0x00, 0x00,
  0x4a, 0xfc, 0xff, 0xff, 0x00, 0x00, 0x00, 0x01, 0x14, 0x00, 0x00, 0x00,
  0x1c, 0x00, 0x00, 0x00, 0x1c, 0x00, 0x00, 0x00, 0x0b, 0x00, 0x00, 0x00,
  0x34, 0x00, 0x00, 0x00, 0x02, 0x00, 0x00, 0x00, 0xff, 0xff, 0xff, 0xff,
  0x03, 0x00, 0x00, 0x00, 0x34, 0xfc, 0xff, 0xff, 0x1b, 0x00, 0x00, 0x00,
  0x53, 0x74, 0x61, 0x74, 0x65, 0x66, 0x75, 0x6c, 0x50, 0x61, 0x72, 0x74,
  0x69, 0x74, 0x69, 0x6f, 0x6e, 0x65, 0x64, 0x43, 0x61, 0x6c, 0x6c, 0x5f,
  0x31, 0x3a, 0x30, 0x00, 0x02, 0x00, 0x00, 0x00, 0x01, 0x00, 0x00, 0x00,
  0x03, 0x00, 0x00, 0x00, 0xa2, 0xfc, 0xff, 0xff, 0x00, 0x00, 0x00, 0x01,
  0x14, 0x00, 0x00, 0x00, 0x1c, 0x00, 0x00, 0x00, 0x1c, 0x00, 0x00, 0x00,
  0x0a, 0x00, 0x00, 0x00, 0x5c, 0x00, 0x00, 0x00, 0x02, 0x00, 0x00, 0x00,
  0xff, 0xff, 0xff, 0xff, 0x03, 0x00, 0x00, 0x00, 0x8c, 0xfc, 0xff, 0xff,
  0x40, 0x00, 0x00, 0x00, 0x73, 0x65, 0x71, 0x75, 0x65, 0x6e, 0x74, 0x69,
  0x61, 0x6c, 0x5f, 0x31, 0x5f, 0x31, 0x2f, 0x64, 0x65, 0x6e, 0x73, 0x65,
  0x5f, 0x35, 0x5f, 0x31, 0x2f, 0x4d, 0x61, 0x74, 0x4d, 0x75, 0x6c, 0x3b,
  0x73, 0x65, 0x71, 0x75, 0x65, 0x6e, 0x74, 0x69, 0x61, 0x6c, 0x5f, 0x31,
  0x5f, 0x31, 0x2f, 0x64, 0x65, 0x6e, 0x73, 0x65, 0x5f, 0x35, 0x5f, 0x31,
  0x2f, 0x42, 0x69, 0x61, 0x73, 0x41, 0x64, 0x64, 0x00, 0x00, 0x00, 0x00,
  0x02, 0x00, 0x00, 0x00, 0x01, 0x00, 0x00, 0x00, 0x03, 0x00, 0x00, 0x00,
  0x22, 0xfd, 0xff, 0xff, 0x00, 0x00, 0x00, 0x01, 0x14, 0x00, 0x00, 0x00,
  0x1c, 0x00, 0x00, 0x00, 0x1c, 0x00, 0x00, 0x00, 0x09, 0x00, 0x00, 0x00,
  0x78, 0x00, 0x00, 0x00, 0x02, 0x00, 0x00, 0x00, 0xff, 0xff, 0xff, 0xff,
  0x08, 0x00, 0x00, 0x00, 0x0c, 0xfd, 0xff, 0xff, 0x5e, 0x00, 0x00, 0x00,
  0x73, 0x65, 0x71, 0x75, 0x65, 0x6e, 0x74, 0x69, 0x61, 0x6c, 0x5f, 0x31,
  0x5f, 0x31, 0x2f, 0x64, 0x65, 0x6e, 0x73, 0x65, 0x5f, 0x34, 0x5f, 0x31,
  0x2f, 0x4d, 0x61, 0x74, 0x4d, 0x75, 0x6c, 0x3b, 0x73, 0x65, 0x71, 0x75,
  0x65, 0x6e, 0x74, 0x69, 0x61, 0x6c, 0x5f, 0x31, 0x5f, 0x31, 0x2f, 0x64,
  0x65, 0x6e, 0x73, 0x65, 0x5f, 0x34, 0x5f, 0x31, 0x2f, 0x52, 0x65, 0x6c,
  0x75, 0x3b, 0x73, 0x65, 0x71, 0x75, 0x65, 0x6e, 0x74, 0x69, 0x61, 0x6c,
  0x5f, 0x31, 0x5f, 0x31, 0x2f, 0x64, 0x65, 0x6e, 0x73, 0x65, 0x5f, 0x34,
  0x5f, 0x31, 0x2f, 0x42, 0x69, 0x61, 0x73, 0x41, 0x64, 0x64, 0x00, 0x00,
  0x02, 0x00, 0x00, 0x00, 0x01, 0x00, 0x00, 0x00, 0x08, 0x00, 0x00, 0x00,
  0xbe, 0xfd, 0xff, 0xff, 0x00, 0x00, 0x00, 0x01, 0x14, 0x00, 0x00, 0x00,
  0x1c, 0x00, 0x00, 0x00, 0x1c, 0x00, 0x00, 0x00, 0x08, 0x00, 0x00, 0x00,
  0x78, 0x00, 0x00, 0x00, 0x02, 0x00, 0x00, 0x00, 0xff, 0xff, 0xff, 0xff,
  0x10, 0x00, 0x00, 0x00, 0xa8, 0xfd, 0xff, 0xff, 0x5e, 0x00, 0x00, 0x00,
  0x73, 0x65, 0x71, 0x75, 0x65, 0x6e, 0x74, 0x69, 0x61, 0x6c, 0x5f, 0x31,
  0x5f, 0x31, 0x2f, 0x64, 0x65, 0x6e, 0x73, 0x65, 0x5f, 0x33, 0x5f, 0x31,
  0x2f, 0x4d, 0x61, 0x74, 0x4d, 0x75, 0x6c, 0x3b, 0x73, 0x65, 0x71, 0x75,
  0x65, 0x6e, 0x74, 0x69, 0x61, 0x6c, 0x5f, 0x31, 0x5f, 0x31, 0x2f, 0x64,
  0x65, 0x6e, 0x73, 0x65, 0x5f, 0x33, 0x5f, 0x31, 0x2f, 0x52, 0x65, 0x6c,
  0x75, 0x3b, 0x73, 0x65, 0x71, 0x75, 0x65, 0x6e, 0x74, 0x69, 0x61, 0x6c,
  0x5f, 0x31, 0x5f, 0x31, 0x2f, 0x64, 0x65, 0x6e, 0x73, 0x65, 0x5f, 0x33,
  0x5f, 0x31, 0x2f, 0x42, 0x69, 0x61, 0x73, 0x41, 0x64, 0x64, 0x00, 0x00,
  0x02, 0x00, 0x00, 0x00, 0x01, 0x00, 0x00, 0x00, 0x10, 0x00, 0x00, 0x00,
  0xae, 0xfe, 0xff, 0xff, 0x00, 0x00, 0x00, 0x01, 0x10, 0x00, 0x00, 0x00,
  0x10, 0x00, 0x00, 0x00, 0x07, 0x00, 0x00, 0x00, 0x2c, 0x00, 0x00, 0x00,
  0x34, 0xfe, 0xff, 0xff, 0x1f, 0x00, 0x00, 0x00, 0x73, 0x65, 0x71, 0x75,
  0x65, 0x6e, 0x74, 0x69, 0x61, 0x6c, 0x5f, 0x31, 0x5f, 0x31, 0x2f, 0x64,
  0x65, 0x6e, 0x73, 0x65, 0x5f, 0x33, 0x5f, 0x31, 0x2f, 0x4d, 0x61, 0x74,
  0x4d, 0x75, 0x6c, 0x00, 0x02, 0x00, 0x00, 0x00, 0x10, 0x00, 0x00, 0x00,
  0x0d, 0x00, 0x00, 0x00, 0xfa, 0xfe, 0xff, 0xff, 0x00, 0x00, 0x00, 0x01,
  0x10, 0x00, 0x00, 0x00, 0x10, 0x00, 0x00, 0x00, 0x06, 0x00, 0x00, 0x00,
  0x3c, 0x00, 0x00, 0x00, 0x80, 0xfe, 0xff, 0xff, 0x2f, 0x00, 0x00, 0x00,
  0x73, 0x65, 0x71, 0x75, 0x65, 0x6e, 0x74, 0x69, 0x61, 0x6c, 0x5f, 0x31,
  0x5f, 0x31, 0x2f, 0x64, 0x65, 0x6e, 0x73, 0x65, 0x5f, 0x33, 0x5f, 0x31,
  0x2f, 0x42, 0x69, 0x61, 0x73, 0x41, 0x64, 0x64, 0x2f, 0x52, 0x65, 0x61,
  0x64, 0x56, 0x61, 0x72, 0x69, 0x61, 0x62, 0x6c, 0x65, 0x4f, 0x70, 0x00,
  0x01, 0x00, 0x00, 0x00, 0x10, 0x00, 0x00, 0x00, 0x52, 0xff, 0xff, 0xff,
  0x00, 0x00, 0x00, 0x01, 0x10, 0x00, 0x00, 0x00, 0x10, 0x00, 0x00, 0x00,
  0x05, 0x00, 0x00, 0x00, 0x1c, 0x00, 0x00, 0x00, 0xd8, 0xfe, 0xff, 0xff,
  0x0f, 0x00, 0x00, 0x00, 0x61, 0x72, 0x69, 0x74, 0x68, 0x2e, 0x63, 0x6f,
  0x6e, 0x73, 0x74, 0x61, 0x6e, 0x74, 0x33, 0x00, 0x01, 0x00, 0x00, 0x00,
  0x08, 0x00, 0x00, 0x00, 0x8a, 0xff, 0xff, 0xff, 0x00, 0x00, 0x00, 0x01,
  0x10, 0x00, 0x00, 0x00, 0x10, 0x00, 0x00, 0x00, 0x04, 0x00, 0x00, 0x00,
  0x1c, 0x00, 0x00, 0x00, 0x10, 0xff, 0xff, 0xff, 0x0f, 0x00, 0x00, 0x00,
  0x61, 0x72, 0x69, 0x74, 0x68, 0x2e, 0x63, 0x6f, 0x6e, 0x73, 0x74, 0x61,
  0x6e, 0x74, 0x32, 0x00, 0x01, 0x00, 0x00, 0x00, 0x03, 0x00, 0x00, 0x00,
  0xc2, 0xff, 0xff, 0xff, 0x00, 0x00, 0x00, 0x01, 0x10, 0x00, 0x00, 0x00,
  0x10, 0x00, 0x00, 0x00, 0x03, 0x00, 0x00, 0x00, 0x1c, 0x00, 0x00, 0x00,
  0x48, 0xff, 0xff, 0xff, 0x0f, 0x00, 0x00, 0x00, 0x61, 0x72, 0x69, 0x74,
  0x68, 0x2e, 0x63, 0x6f, 0x6e, 0x73, 0x74, 0x61, 0x6e, 0x74, 0x31, 0x00,
  0x02, 0x00, 0x00, 0x00, 0x08, 0x00, 0x00, 0x00, 0x10, 0x00, 0x00, 0x00,
  0x00, 0x00, 0x16, 0x00, 0x18, 0x00, 0x14, 0x00, 0x00, 0x00, 0x10, 0x00,
  0x0c, 0x00, 0x08, 0x00, 0x00, 0x00, 0x00, 0x00, 0x00, 0x00, 0x07, 0x00,
  0x16, 0x00, 0x00, 0x00, 0x00, 0x00, 0x00, 0x01, 0x10, 0x00, 0x00, 0x00,
  0x10, 0x00, 0x00, 0x00, 0x02, 0x00, 0x00, 0x00, 0x1c, 0x00, 0x00, 0x00,
  0x9c, 0xff, 0xff, 0xff, 0x0e, 0x00, 0x00, 0x00, 0x61, 0x72, 0x69, 0x74,
  0x68, 0x2e, 0x63, 0x6f, 0x6e, 0x73, 0x74, 0x61, 0x6e, 0x74, 0x00, 0x00,
  0x02, 0x00, 0x00, 0x00, 0x03, 0x00, 0x00, 0x00, 0x08, 0x00, 0x00, 0x00,
  0x00, 0x00, 0x16, 0x00, 0x1c, 0x00, 0x18, 0x00, 0x00, 0x00, 0x14, 0x00,
  0x10, 0x00, 0x0c, 0x00, 0x00, 0x00, 0x00, 0x00, 0x08, 0x00, 0x07, 0x00,
  0x16, 0x00, 0x00, 0x00, 0x00, 0x00, 0x00, 0x01, 0x14, 0x00, 0x00, 0x00,
  0x20, 0x00, 0x00, 0x00, 0x20, 0x00, 0x00, 0x00, 0x01, 0x00, 0x00, 0x00,
  0x40, 0x00, 0x00, 0x00, 0x02, 0x00, 0x00, 0x00, 0xff, 0xff, 0xff, 0xff,
  0x0d, 0x00, 0x00, 0x00, 0x04, 0x00, 0x04, 0x00, 0x04, 0x00, 0x00, 0x00,
  0x20, 0x00, 0x00, 0x00, 0x73, 0x65, 0x72, 0x76, 0x69, 0x6e, 0x67, 0x5f,
  0x64, 0x65, 0x66, 0x61, 0x75, 0x6c, 0x74, 0x5f, 0x6b, 0x65, 0x72, 0x61,
  0x73, 0x5f, 0x74, 0x65, 0x6e, 0x73, 0x6f, 0x72, 0x5f, 0x34, 0x3a, 0x30,
  0x00, 0x00, 0x00, 0x00, 0x02, 0x00, 0x00, 0x00, 0x01, 0x00, 0x00, 0x00,
  0x0d, 0x00, 0x00, 0x00, 0x02, 0x00, 0x00, 0x00, 0x20, 0x00, 0x00, 0x00,
  0x04, 0x00, 0x00, 0x00, 0xf4, 0xff, 0xff, 0xff, 0x19, 0x00, 0x00, 0x00,
  0x00, 0x00, 0x00, 0x19, 0x0c, 0x00, 0x0c, 0x00, 0x0b, 0x00, 0x00, 0x00,
  0x00, 0x00, 0x04, 0x00, 0x0c, 0x00, 0x00, 0x00, 0x09, 0x00, 0x00, 0x00,
  0x00, 0x00, 0x00, 0x09
};
unsigned int wine_mlp_float_tflite_len = 3652;
